TRT-7000-EntropyCalibration2
data: 30810204
conv1: 3ade71cb
pool1: 3ade71cb
conv2: 3b60556e
pool2: 3b60556e
(Unnamed Layer* 4) [Fully Connected]_output: 3baa622b
ip1: 3baa622b
ip2: 3c57cfab
prob: 3b4c05b6
