TRT-7000-EntropyCalibration2
data: 30810204
conv1: 3a4391f4
pool1: 3a4391f4
conv2: 3b437094
pool2: 3b437094
(Unnamed Layer* 4) [Fully Connected]_output: 3b9711b4
ip1: 3bcd0300
ip2: 3cdd20a1
prob: 3bd759c5
